#ifndef SINE_MODEL_H
#define SINE_MODEL_H


unsigned int sine_model_len = 2896;
unsigned char sine_model[] = {
 0x20, 0x00, 0x00, 0x00, 0x54, 0x46, 0x4c, 0x33, 0x00, 0x00, 0x00, 0x00,
  0x00, 0x00, 0x12, 0x00, 0x1c, 0x00, 0x04, 0x00, 0x08, 0x00, 0x0c, 0x00,
  0x10, 0x00, 0x14, 0x00, 0x00, 0x00, 0x18, 0x00, 0x12, 0x00, 0x00, 0x00,
  0x03, 0x00, 0x00, 0x00, 0x08, 0x0b, 0x00, 0x00, 0x68, 0x06, 0x00, 0x00,
  0x50, 0x06, 0x00, 0x00, 0x3c, 0x00, 0x00, 0x00, 0x04, 0x00, 0x00, 0x00,
  0x01, 0x00, 0x00, 0x00, 0x0c, 0x00, 0x00, 0x00, 0x08, 0x00, 0x0c, 0x00,
  0x04, 0x00, 0x08, 0x00, 0x08, 0x00, 0x00, 0x00, 0x08, 0x00, 0x00, 0x00,
  0x0b, 0x00, 0x00, 0x00, 0x13, 0x00, 0x00, 0x00, 0x6d, 0x69, 0x6e, 0x5f,
  0x72, 0x75, 0x6e, 0x74, 0x69, 0x6d, 0x65, 0x5f, 0x76, 0x65, 0x72, 0x73,
  0x69, 0x6f, 0x6e, 0x00, 0x0c, 0x00, 0x00, 0x00, 0x08, 0x06, 0x00, 0x00,
  0xf4, 0x05, 0x00, 0x00, 0x98, 0x05, 0x00, 0x00, 0x34, 0x05, 0x00, 0x00,
  0x20, 0x05, 0x00, 0x00, 0xcc, 0x04, 0x00, 0x00, 0xb8, 0x00, 0x00, 0x00,
  0x64, 0x00, 0x00, 0x00, 0x58, 0x00, 0x00, 0x00, 0x44, 0x00, 0x00, 0x00,
  0x30, 0x00, 0x00, 0x00, 0x04, 0x00, 0x00, 0x00, 0x96, 0xfa, 0xff, 0xff,
  0x04, 0x00, 0x00, 0x00, 0x10, 0x00, 0x00, 0x00, 0x31, 0x2e, 0x35, 0x2e,
  0x30, 0x00, 0x00, 0x00, 0x00, 0x00, 0x00, 0x00, 0x00, 0x00, 0x00, 0x00,
  0x00, 0x00, 0x00, 0x00, 0x00, 0x00, 0x00, 0x00, 0x00, 0x00, 0x00, 0x00,
  0xc0, 0xf5, 0xff, 0xff, 0x00, 0x00, 0x00, 0x00, 0x00, 0x00, 0x00, 0x00,
  0x00, 0x00, 0x00, 0x00, 0xd0, 0xf5, 0xff, 0xff, 0x00, 0x00, 0x00, 0x00,
  0x00, 0x00, 0x00, 0x00, 0x00, 0x00, 0x00, 0x00, 0xe0, 0xf5, 0xff, 0xff,
  0x00, 0x00, 0x00, 0x00, 0xe6, 0xfa, 0xff, 0xff, 0x04, 0x00, 0x00, 0x00,
  0x40, 0x00, 0x00, 0x00, 0x5c, 0x48, 0x3e, 0x3e, 0xa0, 0xf5, 0x71, 0x3f,
  0x66, 0x60, 0x41, 0xbe, 0xc7, 0xee, 0xf1, 0xbe, 0xc6, 0xb9, 0x69, 0x3f,
  0x8e, 0x86, 0xba, 0xbe, 0xbb, 0xbf, 0x1b, 0x3e, 0x8f, 0x6f, 0x0b, 0x3f,
  0x82, 0xb9, 0x85, 0xbf, 0x59, 0x3a, 0xac, 0xbe, 0xf5, 0x2d, 0x11, 0xbf,
  0x99, 0x62, 0x11, 0x3f, 0x03, 0x9f, 0x9d, 0x3f, 0x10, 0x23, 0xd0, 0xbe,
  0x14, 0xe6, 0xc2, 0x3f, 0x38, 0x27, 0x8b, 0xbf, 0x00, 0x00, 0x00, 0x00,
  0x36, 0xfb, 0xff, 0xff, 0x04, 0x00, 0x00, 0x00, 0x00, 0x04, 0x00, 0x00,
  0xa0, 0xc0, 0x7a, 0xbd, 0x11, 0x95, 0x2b, 0xbe, 0x4a, 0xfe, 0x96, 0xbe,
  0x54, 0xa1, 0x98, 0xbd, 0xc4, 0x1e, 0xb2, 0x3d, 0xea, 0x36, 0x50, 0x3e,
  0xf7, 0x64, 0x9e, 0x3e, 0x19, 0xc2, 0x77, 0x3e, 0x87, 0x6e, 0x8e, 0x3e,
  0x3c, 0x7c, 0x11, 0xbe, 0xae, 0xcb, 0x02, 0x3e, 0x5d, 0xe0, 0x8d, 0x3e,
  0xda, 0x6a, 0x5d, 0x3e, 0x81, 0x4f, 0xae, 0xbe, 0xae, 0x6c, 0x0d, 0xbe,
  0xa4, 0x91, 0x8c, 0x3d, 0x4e, 0x01, 0x1c, 0x3e, 0xb3, 0x23, 0xe2, 0xbe,
  0xf0, 0x6d, 0x93, 0x3e, 0x54, 0x4b, 0xeb, 0x3d, 0x3e, 0x57, 0x14, 0x3e,
  0x40, 0x44, 0xc7, 0xbe, 0x48, 0x88, 0x39, 0x3f, 0xf5, 0xf1, 0x47, 0x3e,
  0x3d, 0x6b, 0x55, 0xbf, 0x7f, 0x32, 0xa5, 0xbe, 0xad, 0x36, 0xbc, 0xbe,
  0xa0, 0x45, 0x5c, 0x3d, 0x00, 0x88, 0x18, 0xb9, 0x1a, 0x62, 0x92, 0xbe,
  0xb5, 0x47, 0xbe, 0x3e, 0xc2, 0x59, 0x56, 0x3e, 0x89, 0x27, 0x8e, 0x3e,
  0x0c, 0xfc, 0x9f, 0xbe, 0x22, 0xf6, 0x1a, 0xbe, 0xc4, 0x64, 0x93, 0x3d,
  0x5c, 0x34, 0xb9, 0xbe, 0x7a, 0x6c, 0x8d, 0xbe, 0xa8, 0x08, 0x27, 0x3d,
  0xfe, 0xe1, 0xae, 0xbe, 0xfe, 0x41, 0xb0, 0xbe, 0x9c, 0x8b, 0xf7, 0x3d,
  0x00, 0xf9, 0x8b, 0x3a, 0x70, 0x24, 0xb6, 0xbd, 0xf7, 0x9c, 0xb8, 0x3e,
  0xb2, 0x72, 0x2d, 0x3e, 0x7c, 0xcb, 0x83, 0xbd, 0x26, 0x20, 0x8e, 0xbe,
  0xb1, 0x60, 0xd4, 0x3e, 0xe0, 0x03, 0x06, 0x3e, 0x8f, 0x49, 0x8b, 0xbe,
  0x0c, 0xef, 0xf3, 0x3d, 0xde, 0x1f, 0x0b, 0x3e, 0x70, 0x2d, 0x03, 0xbd,
  0xcc, 0xb1, 0x5e, 0xbc, 0xcc, 0x5b, 0x51, 0xb9, 0xfb, 0x37, 0x58, 0xbe,
  0x26, 0x40, 0xaf, 0xbe, 0x8b, 0x82, 0xae, 0x3e, 0x0f, 0x02, 0x9c, 0x3e,
  0x2a, 0x7c, 0x81, 0xbe, 0x0a, 0x54, 0xca, 0x3e, 0xdd, 0x36, 0xb4, 0xbe,
  0x1b, 0xde, 0x9b, 0x3e, 0xa4, 0x3a, 0x8e, 0x3d, 0x75, 0x23, 0xe7, 0xbe,
  0xcd, 0x7a, 0x0a, 0x3f, 0xc6, 0x0b, 0xda, 0xbe, 0x3e, 0x07, 0x38, 0x3e,
  0xfd, 0x7d, 0xa2, 0xbe, 0x05, 0x2a, 0x37, 0x3f, 0x55, 0x93, 0xf8, 0x3c,
  0x88, 0xbd, 0xe1, 0xbe, 0x04, 0xbe, 0xa6, 0xbd, 0x0a, 0xef, 0x55, 0x3e,
  0x5a, 0xe4, 0x9c, 0xbe, 0x5c, 0x64, 0x32, 0xbe, 0x4e, 0xed, 0x7e, 0xbe,
  0xde, 0xd3, 0x5b, 0x3e, 0x04, 0x3c, 0x3e, 0xbe, 0x61, 0x9b, 0x3c, 0xbe,
  0xad, 0x5a, 0xa6, 0xbe, 0x15, 0x53, 0x6e, 0xbe, 0xa0, 0xca, 0x2f, 0xbc,
  0x94, 0xa1, 0x0b, 0xbe, 0x0e, 0x91, 0x83, 0xbe, 0xca, 0x3f, 0x1f, 0x3e,
  0x28, 0x04, 0x38, 0xbe, 0xa8, 0xd0, 0x3d, 0xbe, 0x6e, 0x81, 0x34, 0x3e,
  0xaf, 0x23, 0x69, 0xbe, 0xb0, 0x7f, 0x0d, 0x3d, 0x9e, 0xaf, 0x1c, 0x3e,
  0xfe, 0x8a, 0x8e, 0xbe, 0x1c, 0x72, 0x98, 0xbe, 0x23, 0x95, 0xac, 0x3e,
  0x60, 0x19, 0x18, 0xbc, 0xbb, 0xa9, 0xcb, 0xbd, 0xf8, 0x9e, 0xb5, 0xbb,
  0x7b, 0xe8, 0xaf, 0x3e, 0x62, 0x19, 0x43, 0x3e, 0x81, 0x7e, 0xbf, 0xbe,
  0x86, 0x3c, 0x74, 0x3c, 0xc5, 0xf2, 0x6c, 0x3e, 0x56, 0x9c, 0x89, 0x3e,
  0x00, 0x0a, 0x9f, 0xbc, 0x00, 0xd9, 0x59, 0xbd, 0xb4, 0xf1, 0xc0, 0xbd,
  0x6d, 0xa0, 0x78, 0xbe, 0x16, 0xfd, 0x6a, 0x3e, 0xc0, 0x28, 0xc7, 0xbb,
  0x90, 0xfc, 0xff, 0x3c, 0x08, 0xf2, 0x92, 0xbd, 0xba, 0x2b, 0x3c, 0x3d,
  0x72, 0x40, 0x18, 0xbe, 0x99, 0x7d, 0x78, 0xbe, 0xb9, 0x52, 0x99, 0x3e,
  0x54, 0xe3, 0xb0, 0x3d, 0x3c, 0xb4, 0xd7, 0xbe, 0xb3, 0x73, 0x3f, 0x3e,
  0x8d, 0x30, 0x38, 0x3f, 0xb0, 0x9a, 0x2c, 0x3d, 0xb5, 0x86, 0xc2, 0xbe,
  0xa9, 0xcc, 0x70, 0xbe, 0x51, 0x0d, 0x5a, 0xbe, 0xe6, 0xac, 0x40, 0x3e,
  0x31, 0x70, 0x9e, 0x3e, 0xaa, 0xea, 0x7f, 0x3e, 0x00, 0xda, 0xc3, 0xbd,
  0x4d, 0x48, 0x22, 0xbd, 0xfc, 0xf2, 0x86, 0xbe, 0xc5, 0x49, 0xc2, 0x3e,
  0xfb, 0x28, 0xb2, 0x3e, 0x2a, 0x11, 0x33, 0x3e, 0x0c, 0x42, 0x31, 0x3f,
  0xca, 0xe7, 0xfd, 0xbd, 0x4e, 0x3c, 0x0e, 0x3e, 0x00, 0x7f, 0x46, 0x3b,
  0x5c, 0x83, 0x1d, 0xbe, 0x5b, 0x70, 0xb6, 0xbe, 0x00, 0x69, 0xa7, 0xbd,
  0x1d, 0x15, 0x3e, 0xbf, 0x9a, 0x6b, 0x4a, 0x3e, 0x8a, 0x51, 0x54, 0x3e,
  0xf2, 0x17, 0xb7, 0xbe, 0xd5, 0x1b, 0xb3, 0x3d, 0xe1, 0x64, 0x5e, 0xbc,
  0xe6, 0xa8, 0x26, 0x3e, 0xe4, 0x81, 0x14, 0xbe, 0xe3, 0xde, 0x9d, 0x3e,
  0xb6, 0x08, 0x18, 0x3f, 0x5f, 0x69, 0x82, 0x3e, 0x38, 0x6c, 0x5f, 0xbf,
  0x8c, 0x58, 0xca, 0xbd, 0x32, 0x6a, 0x44, 0x3e, 0x00, 0x22, 0x0f, 0x3c,
  0x64, 0x07, 0xf9, 0x3d, 0x5d, 0xfe, 0x7c, 0x3e, 0x46, 0xde, 0x4d, 0x3e,
  0x98, 0xf9, 0x3c, 0xbd, 0xc8, 0x27, 0x8e, 0xbe, 0xa0, 0xb0, 0x2f, 0xbe,
  0x42, 0x46, 0xd7, 0xbe, 0xd8, 0x46, 0x92, 0xbe, 0xc1, 0x8d, 0x9a, 0x3e,
  0xa8, 0x08, 0xf5, 0xbd, 0xa2, 0x24, 0x2a, 0x3e, 0xf6, 0xc2, 0x16, 0xbe,
  0xee, 0xe0, 0x90, 0xbe, 0x9a, 0x1d, 0xd6, 0xbe, 0xee, 0xa0, 0x96, 0xbe,
  0x22, 0xff, 0x32, 0x3e, 0x7f, 0x30, 0xba, 0xbe, 0xee, 0x75, 0xa6, 0xbe,
  0xc3, 0xa4, 0xa4, 0x3e, 0xa5, 0x13, 0x54, 0xbe, 0x2b, 0x7c, 0x64, 0xbe,
  0x2d, 0x21, 0x51, 0xbe, 0xbd, 0x10, 0x9c, 0x3e, 0xb4, 0x23, 0xb5, 0x3d,
  0x61, 0x73, 0x8d, 0x3e, 0xac, 0xf9, 0xc6, 0xbd, 0x29, 0x00, 0xbf, 0xbe,
  0x18, 0xc6, 0xac, 0xbe, 0x94, 0x57, 0xb0, 0xbd, 0x82, 0x3b, 0x00, 0xbe,
  0x0f, 0xe4, 0xd1, 0x3e, 0xfa, 0x35, 0x69, 0xbe, 0x98, 0xea, 0x90, 0xbe,
  0x42, 0x51, 0x7f, 0xbe, 0xf7, 0x93, 0xd4, 0xbe, 0xd8, 0xaf, 0xa1, 0xbd,
  0xd5, 0x9d, 0xbd, 0x3e, 0x70, 0xbf, 0xc9, 0xbe, 0x16, 0x23, 0x8d, 0x3e,
  0x13, 0x7e, 0xc2, 0xbe, 0xe4, 0x0f, 0xb6, 0xbe, 0x3c, 0x62, 0xa0, 0xbe,
  0x09, 0x16, 0x0c, 0xbd, 0x27, 0xf0, 0xf7, 0x3e, 0xd9, 0x65, 0xb3, 0xbf,
  0xaf, 0xff, 0xa9, 0xbe, 0x01, 0x70, 0xa6, 0x3e, 0xaa, 0x30, 0xb1, 0xbe,
  0x51, 0xb5, 0x5b, 0xbe, 0xc1, 0x3a, 0xab, 0xbe, 0x22, 0xde, 0x5e, 0xbe,
  0x3e, 0x0b, 0x07, 0x3e, 0x52, 0xab, 0x7d, 0x3e, 0x6f, 0xc7, 0xcb, 0xbe,
  0x56, 0xc3, 0x55, 0x3e, 0xfd, 0x45, 0xb9, 0x3e, 0x4f, 0x82, 0xd4, 0x3e,
  0xd5, 0x3b, 0xa0, 0x3e, 0xf0, 0xba, 0xcf, 0xbe, 0x2c, 0x06, 0x12, 0xbe,
  0xc0, 0xe4, 0x9f, 0xbd, 0xa0, 0x4b, 0x79, 0x3c, 0x8e, 0x66, 0x69, 0xbe,
  0x80, 0x29, 0x68, 0xbb, 0xe6, 0xec, 0x9e, 0xbe, 0xa0, 0xc5, 0xb9, 0xbd,
  0xc9, 0xd3, 0x99, 0x3e, 0xf6, 0xc0, 0x64, 0xbe, 0x67, 0xc5, 0x67, 0xbe,
  0x25, 0x33, 0x4e, 0xbe, 0x4d, 0x76, 0xf6, 0xbd, 0x40, 0x7e, 0x22, 0x3c,
  0xb5, 0x0f, 0xa0, 0xbe, 0x96, 0xb6, 0x80, 0xbe, 0xd5, 0x57, 0xbc, 0xbe,
  0xa3, 0x36, 0x77, 0x3e, 0x5b, 0xc8, 0x4b, 0x3f, 0xbc, 0xd3, 0xe6, 0x3d,
  0x81, 0x0b, 0x8d, 0x3e, 0x18, 0x37, 0x06, 0xbe, 0x02, 0x8e, 0x2c, 0x3e,
  0x56, 0xf4, 0x09, 0x3e, 0x47, 0xbd, 0xbf, 0x3e, 0xb7, 0x8b, 0xbb, 0x3e,
  0x38, 0xc1, 0x6c, 0xbe, 0xe3, 0x2f, 0xd5, 0xbe, 0x53, 0x42, 0x48, 0x3e,
  0xbf, 0x1b, 0x80, 0xbe, 0x28, 0x79, 0x4b, 0x3d, 0x00, 0x86, 0x00, 0x3c,
  0xd0, 0xe3, 0x12, 0x3f, 0x11, 0x14, 0xab, 0xbe, 0xd0, 0x60, 0x77, 0x3e,
  0xfe, 0x69, 0x15, 0x3e, 0x66, 0x6a, 0x58, 0x3e, 0xdc, 0xb9, 0x14, 0xbe,
  0xaf, 0x02, 0xc5, 0x3e, 0x5d, 0x7b, 0xf0, 0xbe, 0x10, 0x5a, 0xd5, 0xbc,
  0x63, 0xeb, 0xa9, 0xbe, 0x00, 0x00, 0x00, 0x00, 0x46, 0xff, 0xff, 0xff,
  0x04, 0x00, 0x00, 0x00, 0x40, 0x00, 0x00, 0x00, 0x28, 0x1e, 0x93, 0xbd,
  0xd2, 0xd7, 0xbd, 0x3e, 0x4a, 0xb8, 0x8e, 0x3e, 0x6f, 0x0a, 0x11, 0xbf,
  0xb9, 0x34, 0x89, 0xbe, 0x60, 0x79, 0x9a, 0xbe, 0xf8, 0x53, 0x2c, 0xbb,
  0xfd, 0xe4, 0xe0, 0x3e, 0x37, 0x87, 0x53, 0x3e, 0x4c, 0x58, 0xde, 0xbd,
  0x80, 0x79, 0x5c, 0xbc, 0x91, 0xba, 0x9d, 0xbe, 0xcc, 0x53, 0xef, 0xbe,
  0x8d, 0x80, 0x21, 0x3f, 0x9a, 0x87, 0x10, 0xbf, 0xe1, 0x04, 0x9a, 0xbe,
  0x00, 0x00, 0x00, 0x00, 0x96, 0xff, 0xff, 0xff, 0x04, 0x00, 0x00, 0x00,
  0x04, 0x00, 0x00, 0x00, 0x80, 0x84, 0xb7, 0xbe, 0xa6, 0xff, 0xff, 0xff,
  0x04, 0x00, 0x00, 0x00, 0x40, 0x00, 0x00, 0x00, 0x2a, 0x1c, 0xbc, 0xbd,
  0x40, 0x4b, 0xc6, 0x3e, 0x00, 0x00, 0x00, 0x00, 0x6a, 0xd4, 0x8b, 0x3e,
  0x13, 0x92, 0x90, 0x3e, 0x00, 0x00, 0x00, 0x00, 0x8b, 0x6a, 0xa5, 0xbe,
  0x52, 0x84, 0xd8, 0xbe, 0x64, 0x9e, 0xbb, 0x3e, 0x5f, 0x9d, 0x07, 0x3e,
  0x00, 0x00, 0x00, 0x00, 0x46, 0x3b, 0x4f, 0xbb, 0xe2, 0xb0, 0xbd, 0x3e,
  0x00, 0x00, 0x00, 0x00, 0x98, 0xc3, 0x16, 0xbf, 0x22, 0x43, 0xee, 0x3e,
  0x00, 0x00, 0x00, 0x00, 0x00, 0x00, 0x00, 0x00, 0x00, 0x00, 0x00, 0x00,
  0x00, 0x00, 0x06, 0x00, 0x08, 0x00, 0x04, 0x00, 0x06, 0x00, 0x00, 0x00,
  0x04, 0x00, 0x00, 0x00, 0x40, 0x00, 0x00, 0x00, 0x00, 0x00, 0x00, 0x00,
  0xe0, 0xa1, 0x88, 0xbe, 0xb9, 0xc2, 0x99, 0x3e, 0x00, 0x00, 0x00, 0x00,
  0x00, 0x00, 0x00, 0x00, 0x00, 0x00, 0x00, 0x00, 0x6e, 0xf4, 0xf6, 0x3e,
  0x53, 0x77, 0xbd, 0x3d, 0xc4, 0xfe, 0x10, 0xbf, 0x00, 0x00, 0x00, 0x00,
  0x00, 0x00, 0x00, 0x00, 0x00, 0x00, 0x00, 0x00, 0x00, 0x00, 0x00, 0x00,
  0xdc, 0xba, 0x57, 0xbe, 0x00, 0x00, 0x00, 0x00, 0x00, 0x00, 0x00, 0x00,
  0x00, 0x00, 0x00, 0x00, 0x00, 0x00, 0x00, 0x00, 0x00, 0x00, 0x00, 0x00,
  0x60, 0xfb, 0xff, 0xff, 0x00, 0x00, 0x00, 0x00, 0x00, 0x00, 0x00, 0x00,
  0x00, 0x00, 0x00, 0x00, 0x70, 0xfb, 0xff, 0xff, 0x0f, 0x00, 0x00, 0x00,
  0x4d, 0x4c, 0x49, 0x52, 0x20, 0x43, 0x6f, 0x6e, 0x76, 0x65, 0x72, 0x74,
  0x65, 0x64, 0x2e, 0x00, 0x01, 0x00, 0x00, 0x00, 0x14, 0x00, 0x00, 0x00,
  0x00, 0x00, 0x0e, 0x00, 0x18, 0x00, 0x04, 0x00, 0x08, 0x00, 0x0c, 0x00,
  0x10, 0x00, 0x14, 0x00, 0x0e, 0x00, 0x00, 0x00, 0x00, 0x01, 0x00, 0x00,
  0xf4, 0x00, 0x00, 0x00, 0xe8, 0x00, 0x00, 0x00, 0x14, 0x00, 0x00, 0x00,
  0x04, 0x00, 0x00, 0x00, 0x04, 0x00, 0x00, 0x00, 0x6d, 0x61, 0x69, 0x6e,
  0x00, 0x00, 0x00, 0x00, 0x03, 0x00, 0x00, 0x00, 0x90, 0x00, 0x00, 0x00,
  0x48, 0x00, 0x00, 0x00, 0x04, 0x00, 0x00, 0x00, 0xce, 0xff, 0xff, 0xff,
  0x00, 0x00, 0x00, 0x08, 0x18, 0x00, 0x00, 0x00, 0x0c, 0x00, 0x00, 0x00,
  0x04, 0x00, 0x00, 0x00, 0xe8, 0xfb, 0xff, 0xff, 0x01, 0x00, 0x00, 0x00,
  0x09, 0x00, 0x00, 0x00, 0x03, 0x00, 0x00, 0x00, 0x08, 0x00, 0x00, 0x00,
  0x06, 0x00, 0x00, 0x00, 0x03, 0x00, 0x00, 0x00, 0x00, 0x00, 0x0e, 0x00,
  0x14, 0x00, 0x00, 0x00, 0x08, 0x00, 0x0c, 0x00, 0x07, 0x00, 0x10, 0x00,
  0x0e, 0x00, 0x00, 0x00, 0x00, 0x00, 0x00, 0x08, 0x1c, 0x00, 0x00, 0x00,
  0x10, 0x00, 0x00, 0x00, 0x04, 0x00, 0x00, 0x00, 0xba, 0xff, 0xff, 0xff,
  0x00, 0x00, 0x00, 0x01, 0x01, 0x00, 0x00, 0x00, 0x08, 0x00, 0x00, 0x00,
  0x03, 0x00, 0x00, 0x00, 0x07, 0x00, 0x00, 0x00, 0x05, 0x00, 0x00, 0x00,
  0x02, 0x00, 0x00, 0x00, 0x00, 0x00, 0x0e, 0x00, 0x16, 0x00, 0x00, 0x00,
  0x08, 0x00, 0x0c, 0x00, 0x07, 0x00, 0x10, 0x00, 0x0e, 0x00, 0x00, 0x00,
  0x00, 0x00, 0x00, 0x08, 0x24, 0x00, 0x00, 0x00, 0x18, 0x00, 0x00, 0x00,
  0x0c, 0x00, 0x00, 0x00, 0x00, 0x00, 0x06, 0x00, 0x08, 0x00, 0x07, 0x00,
  0x06, 0x00, 0x00, 0x00, 0x00, 0x00, 0x00, 0x01, 0x01, 0x00, 0x00, 0x00,
  0x07, 0x00, 0x00, 0x00, 0x03, 0x00, 0x00, 0x00, 0x00, 0x00, 0x00, 0x00,
  0x04, 0x00, 0x00, 0x00, 0x01, 0x00, 0x00, 0x00, 0x01, 0x00, 0x00, 0x00,
  0x09, 0x00, 0x00, 0x00, 0x01, 0x00, 0x00, 0x00, 0x00, 0x00, 0x00, 0x00,
  0x0a, 0x00, 0x00, 0x00, 0x34, 0x03, 0x00, 0x00, 0xc4, 0x02, 0x00, 0x00,
  0x58, 0x02, 0x00, 0x00, 0xfc, 0x01, 0x00, 0x00, 0xb8, 0x01, 0x00, 0x00,
  0x70, 0x01, 0x00, 0x00, 0x28, 0x01, 0x00, 0x00, 0xbc, 0x00, 0x00, 0x00,
  0x4c, 0x00, 0x00, 0x00, 0x04, 0x00, 0x00, 0x00, 0x08, 0xfd, 0xff, 0xff,
  0x34, 0x00, 0x00, 0x00, 0x0a, 0x00, 0x00, 0x00, 0x1c, 0x00, 0x00, 0x00,
  0x14, 0x00, 0x00, 0x00, 0x04, 0x00, 0x00, 0x00, 0x02, 0x00, 0x00, 0x00,
  0xff, 0xff, 0xff, 0xff, 0x01, 0x00, 0x00, 0x00, 0xf4, 0xfc, 0xff, 0xff,
  0x08, 0x00, 0x00, 0x00, 0x49, 0x64, 0x65, 0x6e, 0x74, 0x69, 0x74, 0x79,
  0x00, 0x00, 0x00, 0x00, 0x02, 0x00, 0x00, 0x00, 0x01, 0x00, 0x00, 0x00,
  0x01, 0x00, 0x00, 0x00, 0x4c, 0xfd, 0xff, 0xff, 0x5c, 0x00, 0x00, 0x00,
  0x09, 0x00, 0x00, 0x00, 0x1c, 0x00, 0x00, 0x00, 0x14, 0x00, 0x00, 0x00,
  0x04, 0x00, 0x00, 0x00, 0x02, 0x00, 0x00, 0x00, 0xff, 0xff, 0xff, 0xff,
  0x10, 0x00, 0x00, 0x00, 0x38, 0xfd, 0xff, 0xff, 0x32, 0x00, 0x00, 0x00,
  0x73, 0x65, 0x71, 0x75, 0x65, 0x6e, 0x74, 0x69, 0x61, 0x6c, 0x2f, 0x64,
  0x65, 0x6e, 0x73, 0x65, 0x5f, 0x31, 0x2f, 0x52, 0x65, 0x6c, 0x75, 0x3b,
  0x73, 0x65, 0x71, 0x75, 0x65, 0x6e, 0x74, 0x69, 0x61, 0x6c, 0x2f, 0x64,
  0x65, 0x6e, 0x73, 0x65, 0x5f, 0x31, 0x2f, 0x42, 0x69, 0x61, 0x73, 0x41,
  0x64, 0x64, 0x00, 0x00, 0x02, 0x00, 0x00, 0x00, 0x01, 0x00, 0x00, 0x00,
  0x10, 0x00, 0x00, 0x00, 0xb8, 0xfd, 0xff, 0xff, 0x58, 0x00, 0x00, 0x00,
  0x08, 0x00, 0x00, 0x00, 0x1c, 0x00, 0x00, 0x00, 0x14, 0x00, 0x00, 0x00,
  0x04, 0x00, 0x00, 0x00, 0x02, 0x00, 0x00, 0x00, 0xff, 0xff, 0xff, 0xff,
  0x10, 0x00, 0x00, 0x00, 0xa4, 0xfd, 0xff, 0xff, 0x2e, 0x00, 0x00, 0x00,
  0x73, 0x65, 0x71, 0x75, 0x65, 0x6e, 0x74, 0x69, 0x61, 0x6c, 0x2f, 0x64,
  0x65, 0x6e, 0x73, 0x65, 0x2f, 0x52, 0x65, 0x6c, 0x75, 0x3b, 0x73, 0x65,
  0x71, 0x75, 0x65, 0x6e, 0x74, 0x69, 0x61, 0x6c, 0x2f, 0x64, 0x65, 0x6e,
  0x73, 0x65, 0x2f, 0x42, 0x69, 0x61, 0x73, 0x41, 0x64, 0x64, 0x00, 0x00,
  0x02, 0x00, 0x00, 0x00, 0x01, 0x00, 0x00, 0x00, 0x10, 0x00, 0x00, 0x00,
  0x86, 0xfe, 0xff, 0xff, 0x34, 0x00, 0x00, 0x00, 0x07, 0x00, 0x00, 0x00,
  0x0c, 0x00, 0x00, 0x00, 0x04, 0x00, 0x00, 0x00, 0xfc, 0xfd, 0xff, 0xff,
  0x19, 0x00, 0x00, 0x00, 0x73, 0x65, 0x71, 0x75, 0x65, 0x6e, 0x74, 0x69,
  0x61, 0x6c, 0x2f, 0x64, 0x65, 0x6e, 0x73, 0x65, 0x5f, 0x32, 0x2f, 0x4d,
  0x61, 0x74, 0x4d, 0x75, 0x6c, 0x00, 0x00, 0x00, 0x02, 0x00, 0x00, 0x00,
  0x01, 0x00, 0x00, 0x00, 0x10, 0x00, 0x00, 0x00, 0xca, 0xfe, 0xff, 0xff,
  0x34, 0x00, 0x00, 0x00, 0x06, 0x00, 0x00, 0x00, 0x0c, 0x00, 0x00, 0x00,
  0x04, 0x00, 0x00, 0x00, 0x40, 0xfe, 0xff, 0xff, 0x19, 0x00, 0x00, 0x00,
  0x73, 0x65, 0x71, 0x75, 0x65, 0x6e, 0x74, 0x69, 0x61, 0x6c, 0x2f, 0x64,
  0x65, 0x6e, 0x73, 0x65, 0x5f, 0x31, 0x2f, 0x4d, 0x61, 0x74, 0x4d, 0x75,
  0x6c, 0x00, 0x00, 0x00, 0x02, 0x00, 0x00, 0x00, 0x10, 0x00, 0x00, 0x00,
  0x10, 0x00, 0x00, 0x00, 0x0e, 0xff, 0xff, 0xff, 0x30, 0x00, 0x00, 0x00,
  0x05, 0x00, 0x00, 0x00, 0x0c, 0x00, 0x00, 0x00, 0x04, 0x00, 0x00, 0x00,
  0x84, 0xfe, 0xff, 0xff, 0x17, 0x00, 0x00, 0x00, 0x73, 0x65, 0x71, 0x75,
  0x65, 0x6e, 0x74, 0x69, 0x61, 0x6c, 0x2f, 0x64, 0x65, 0x6e, 0x73, 0x65,
  0x2f, 0x4d, 0x61, 0x74, 0x4d, 0x75, 0x6c, 0x00, 0x02, 0x00, 0x00, 0x00,
  0x10, 0x00, 0x00, 0x00, 0x01, 0x00, 0x00, 0x00, 0x4e, 0xff, 0xff, 0xff,
  0x4c, 0x00, 0x00, 0x00, 0x04, 0x00, 0x00, 0x00, 0x0c, 0x00, 0x00, 0x00,
  0x04, 0x00, 0x00, 0x00, 0xc4, 0xfe, 0xff, 0xff, 0x32, 0x00, 0x00, 0x00,
  0x73, 0x65, 0x71, 0x75, 0x65, 0x6e, 0x74, 0x69, 0x61, 0x6c, 0x2f, 0x64,
  0x65, 0x6e, 0x73, 0x65, 0x5f, 0x32, 0x2f, 0x42, 0x69, 0x61, 0x73, 0x41,
  0x64, 0x64, 0x2f, 0x52, 0x65, 0x61, 0x64, 0x56, 0x61, 0x72, 0x69, 0x61,
  0x62, 0x6c, 0x65, 0x4f, 0x70, 0x2f, 0x72, 0x65, 0x73, 0x6f, 0x75, 0x72,
  0x63, 0x65, 0x00, 0x00, 0x01, 0x00, 0x00, 0x00, 0x01, 0x00, 0x00, 0x00,
  0xa6, 0xff, 0xff, 0xff, 0x4c, 0x00, 0x00, 0x00, 0x03, 0x00, 0x00, 0x00,
  0x0c, 0x00, 0x00, 0x00, 0x04, 0x00, 0x00, 0x00, 0x1c, 0xff, 0xff, 0xff,
  0x32, 0x00, 0x00, 0x00, 0x73, 0x65, 0x71, 0x75, 0x65, 0x6e, 0x74, 0x69,
  0x61, 0x6c, 0x2f, 0x64, 0x65, 0x6e, 0x73, 0x65, 0x5f, 0x31, 0x2f, 0x42,
  0x69, 0x61, 0x73, 0x41, 0x64, 0x64, 0x2f, 0x52, 0x65, 0x61, 0x64, 0x56,
  0x61, 0x72, 0x69, 0x61, 0x62, 0x6c, 0x65, 0x4f, 0x70, 0x2f, 0x72, 0x65,
  0x73, 0x6f, 0x75, 0x72, 0x63, 0x65, 0x00, 0x00, 0x01, 0x00, 0x00, 0x00,
  0x10, 0x00, 0x00, 0x00, 0x00, 0x00, 0x0e, 0x00, 0x14, 0x00, 0x04, 0x00,
  0x00, 0x00, 0x08, 0x00, 0x0c, 0x00, 0x10, 0x00, 0x0e, 0x00, 0x00, 0x00,
  0x4c, 0x00, 0x00, 0x00, 0x02, 0x00, 0x00, 0x00, 0x0c, 0x00, 0x00, 0x00,
  0x04, 0x00, 0x00, 0x00, 0x84, 0xff, 0xff, 0xff, 0x30, 0x00, 0x00, 0x00,
  0x73, 0x65, 0x71, 0x75, 0x65, 0x6e, 0x74, 0x69, 0x61, 0x6c, 0x2f, 0x64,
  0x65, 0x6e, 0x73, 0x65, 0x2f, 0x42, 0x69, 0x61, 0x73, 0x41, 0x64, 0x64,
  0x2f, 0x52, 0x65, 0x61, 0x64, 0x56, 0x61, 0x72, 0x69, 0x61, 0x62, 0x6c,
  0x65, 0x4f, 0x70, 0x2f, 0x72, 0x65, 0x73, 0x6f, 0x75, 0x72, 0x63, 0x65,
  0x00, 0x00, 0x00, 0x00, 0x01, 0x00, 0x00, 0x00, 0x10, 0x00, 0x00, 0x00,
  0x14, 0x00, 0x18, 0x00, 0x04, 0x00, 0x00, 0x00, 0x08, 0x00, 0x0c, 0x00,
  0x10, 0x00, 0x00, 0x00, 0x00, 0x00, 0x14, 0x00, 0x14, 0x00, 0x00, 0x00,
  0x38, 0x00, 0x00, 0x00, 0x01, 0x00, 0x00, 0x00, 0x20, 0x00, 0x00, 0x00,
  0x18, 0x00, 0x00, 0x00, 0x04, 0x00, 0x00, 0x00, 0x02, 0x00, 0x00, 0x00,
  0xff, 0xff, 0xff, 0xff, 0x01, 0x00, 0x00, 0x00, 0x04, 0x00, 0x04, 0x00,
  0x04, 0x00, 0x00, 0x00, 0x0b, 0x00, 0x00, 0x00, 0x64, 0x65, 0x6e, 0x73,
  0x65, 0x5f, 0x69, 0x6e, 0x70, 0x75, 0x74, 0x00, 0x02, 0x00, 0x00, 0x00,
  0x01, 0x00, 0x00, 0x00, 0x01, 0x00, 0x00, 0x00, 0x01, 0x00, 0x00, 0x00,
  0x10, 0x00, 0x00, 0x00, 0x00, 0x00, 0x0a, 0x00, 0x0c, 0x00, 0x07, 0x00,
  0x00, 0x00, 0x08, 0x00, 0x0a, 0x00, 0x00, 0x00, 0x00, 0x00, 0x00, 0x09,
  0x03, 0x00, 0x00, 0x00
};

#endif //SINE_MODEL_H